
#ifdef __has_attribute
#define HAVE_ATTRIBUTE(x) __has_attribute(x)
#else
#define HAVE_ATTRIBUTE(x) 0
#endif
#if HAVE_ATTRIBUTE(aligned) || (defined(__GNUC__) && !defined(__clang__))
#define DATA_ALIGN_ATTRIBUTE __attribute__((aligned(4)))
#else
#define DATA_ALIGN_ATTRIBUTE
#endif

const unsigned char model_data[] DATA_ALIGN_ATTRIBUTE = {
	0x28, 0x00, 0x00, 0x00, 0x54, 0x46, 0x4c, 0x33, 0x00, 0x00, 0x00, 0x00, 
	0x00, 0x00, 0x00, 0x00, 0x00, 0x00, 0x00, 0x00, 0x00, 0x00, 0x12, 0x00, 
	0x1c, 0x00, 0x04, 0x00, 0x08, 0x00, 0x0c, 0x00, 0x10, 0x00, 0x14, 0x00, 
	0x00, 0x00, 0x18, 0x00, 0x12, 0x00, 0x00, 0x00, 0x03, 0x00, 0x00, 0x00, 
	0x70, 0x10, 0x00, 0x00, 0xc0, 0x0b, 0x00, 0x00, 0xa8, 0x0b, 0x00, 0x00, 
	0x3c, 0x00, 0x00, 0x00, 0x04, 0x00, 0x00, 0x00, 0x01, 0x00, 0x00, 0x00, 
	0x0c, 0x00, 0x00, 0x00, 0x08, 0x00, 0x0c, 0x00, 0x04, 0x00, 0x08, 0x00, 
	0x08, 0x00, 0x00, 0x00, 0x08, 0x00, 0x00, 0x00, 0x09, 0x00, 0x00, 0x00, 
	0x13, 0x00, 0x00, 0x00, 0x6d, 0x69, 0x6e, 0x5f, 0x72, 0x75, 0x6e, 0x74, 
	0x69, 0x6d, 0x65, 0x5f, 0x76, 0x65, 0x72, 0x73, 0x69, 0x6f, 0x6e, 0x00, 
	0x0a, 0x00, 0x00, 0x00, 0x60, 0x0b, 0x00, 0x00, 0x4c, 0x0b, 0x00, 0x00, 
	0xf0, 0x04, 0x00, 0x00, 0xcc, 0x00, 0x00, 0x00, 0x78, 0x00, 0x00, 0x00, 
	0x6c, 0x00, 0x00, 0x00, 0x58, 0x00, 0x00, 0x00, 0x44, 0x00, 0x00, 0x00, 
	0x30, 0x00, 0x00, 0x00, 0x04, 0x00, 0x00, 0x00, 0x36, 0xfb, 0xff, 0xff, 
	0x04, 0x00, 0x00, 0x00, 0x10, 0x00, 0x00, 0x00, 0x31, 0x2e, 0x31, 0x34, 
	0x2e, 0x30, 0x00, 0x00, 0x00, 0x00, 0x00, 0x00, 0x00, 0x00, 0x00, 0x00, 
	0x00, 0x00, 0x00, 0x00, 0x00, 0x00, 0x00, 0x00, 0x00, 0x00, 0x00, 0x00, 
	0x50, 0xf0, 0xff, 0xff, 0x00, 0x00, 0x00, 0x00, 0x00, 0x00, 0x00, 0x00, 
	0x00, 0x00, 0x00, 0x00, 0x60, 0xf0, 0xff, 0xff, 0x00, 0x00, 0x00, 0x00, 
	0x00, 0x00, 0x00, 0x00, 0x00, 0x00, 0x00, 0x00, 0x70, 0xf0, 0xff, 0xff, 
	0x00, 0x00, 0x00, 0x00, 0x00, 0x00, 0x00, 0x00, 0x00, 0x00, 0x00, 0x00, 
	0x80, 0xf0, 0xff, 0xff, 0x00, 0x00, 0x00, 0x00, 0x96, 0xfb, 0xff, 0xff, 
	0x04, 0x00, 0x00, 0x00, 0x40, 0x00, 0x00, 0x00, 0xf2, 0xaf, 0x98, 0xbe, 
	0x00, 0x71, 0x5d, 0x3e, 0x1e, 0x36, 0xa3, 0xbe, 0x30, 0x51, 0x4c, 0xbd, 
	0x50, 0x29, 0x90, 0x3d, 0x10, 0x89, 0xb5, 0xbe, 0x04, 0xd3, 0x4b, 0x3e, 
	0x9b, 0x3e, 0x08, 0xbf, 0xd4, 0x16, 0x74, 0xbe, 0xa0, 0xb8, 0x0f, 0xbd, 
	0x64, 0x99, 0x98, 0x3e, 0xce, 0x9b, 0xa8, 0x3e, 0x20, 0x75, 0x10, 0xbd, 
	0xb6, 0xa3, 0xd1, 0xbe, 0xa0, 0x8a, 0xe7, 0x3c, 0x58, 0x8d, 0xa2, 0x3e, 
	0x00, 0x00, 0x00, 0x00, 0xe6, 0xfb, 0xff, 0xff, 0x04, 0x00, 0x00, 0x00, 
	0x00, 0x04, 0x00, 0x00, 0x27, 0x1f, 0xc5, 0x3e, 0xa5, 0xb0, 0xd8, 0x3e, 
	0x00, 0x7b, 0xb0, 0xbc, 0x0e, 0xee, 0x76, 0x3e, 0x06, 0x06, 0x00, 0x3e, 
	0x62, 0xac, 0x21, 0xbe, 0x48, 0x55, 0x92, 0xbd, 0x9b, 0xf2, 0x8e, 0x3e, 
	0x80, 0xd0, 0x6a, 0xbb, 0xc0, 0xe2, 0xef, 0xbc, 0xce, 0x97, 0x0c, 0x3e, 
	0x00, 0xba, 0xea, 0xbb, 0xca, 0xf5, 0x71, 0xbe, 0x0e, 0x79, 0x57, 0xbe, 
	0xb8, 0xea, 0x68, 0x3d, 0x2c, 0xcb, 0xce, 0x3d, 0xba, 0x79, 0x5e, 0xbe, 
	0x8b, 0xd0, 0xa7, 0xbe, 0x30, 0xef, 0xae, 0xbe, 0x19, 0x9d, 0xd8, 0x3e, 
	0x94, 0x1c, 0x96, 0xbe, 0x63, 0xf5, 0xc1, 0x3e, 0xf0, 0x03, 0x28, 0xbe, 
	0x1d, 0x9c, 0xb5, 0xbe, 0x80, 0x0d, 0x2a, 0xbe, 0x00, 0x94, 0x97, 0xbb, 
	0xa9, 0xdf, 0xc1, 0x3e, 0x24, 0x64, 0xd8, 0xbe, 0x92, 0xc2, 0x4f, 0x3e, 
	0xc9, 0x07, 0x7c, 0xbe, 0x1e, 0x3c, 0x95, 0xbe, 0x35, 0xe8, 0xc3, 0xbe, 
	0x9c, 0x43, 0x43, 0xbe, 0x8d, 0x75, 0x6c, 0xbe, 0x9b, 0x0f, 0xc8, 0xbe, 
	0xce, 0xec, 0x71, 0xbe, 0x80, 0xc9, 0x7a, 0x3c, 0xa6, 0x50, 0x20, 0x3e, 
	0x05, 0x68, 0xab, 0x3e, 0x4f, 0xa7, 0xc3, 0xbe, 0xea, 0x82, 0x21, 0x3e, 
	0x80, 0x6e, 0xc0, 0xbe, 0x45, 0x89, 0xd5, 0xbe, 0x15, 0x17, 0xad, 0x3e, 
	0x96, 0x4b, 0x96, 0xbe, 0x5a, 0xa8, 0x95, 0xbe, 0x6a, 0x1b, 0xb0, 0xbe, 
	0x9f, 0x59, 0xbb, 0x3e, 0x7a, 0x27, 0x54, 0x3e, 0x63, 0xa0, 0x9a, 0x3e, 
	0x6a, 0xbe, 0xa0, 0xbe, 0x4c, 0xa7, 0xca, 0x3d, 0x00, 0xa8, 0x91, 0x39, 
	0x13, 0x18, 0x92, 0x3e, 0x97, 0x3a, 0x7b, 0xbe, 0xe7, 0xeb, 0xae, 0x3e, 
	0x20, 0x11, 0xa5, 0xbe, 0xc9, 0xcf, 0xbc, 0xbe, 0x44, 0x54, 0x7c, 0xbe, 
	0x90, 0x4a, 0x03, 0xbd, 0xa8, 0x55, 0x8c, 0xbe, 0xa9, 0x49, 0x8b, 0x3e, 
	0x5e, 0xa9, 0x9a, 0xbe, 0xdc, 0xd5, 0x33, 0xbe, 0x4a, 0x5c, 0x46, 0x3e, 
	0x80, 0x1c, 0xf3, 0xbc, 0x63, 0x65, 0x97, 0x3e, 0x00, 0x31, 0x94, 0xbe, 
	0x5c, 0x41, 0x29, 0xbe, 0xdd, 0x77, 0xc0, 0x3e, 0xc7, 0xea, 0x4d, 0xbe, 
	0x96, 0xf8, 0x88, 0xbe, 0xc3, 0x38, 0xad, 0x3e, 0x4e, 0x4d, 0x3b, 0x3e, 
	0x4a, 0x0a, 0x0b, 0x3e, 0x18, 0xe8, 0x1b, 0xbd, 0x1a, 0x17, 0x94, 0xbe, 
	0x7c, 0x83, 0xfc, 0xbd, 0x70, 0x49, 0xfb, 0xbc, 0x30, 0x00, 0xf5, 0x3c, 
	0xc6, 0x60, 0x10, 0xbe, 0xa0, 0x1c, 0x12, 0x3d, 0x45, 0xc1, 0xb5, 0x3e, 
	0x5d, 0x58, 0xb6, 0x3e, 0x6f, 0x53, 0x83, 0x3e, 0x25, 0x01, 0x7d, 0xbe, 
	0x9d, 0x6c, 0xcb, 0x3e, 0x6b, 0x42, 0x92, 0xbe, 0xdc, 0xba, 0xb8, 0xbe, 
	0x6b, 0x81, 0xb1, 0x3e, 0x40, 0xf6, 0xee, 0xbd, 0x98, 0x77, 0x29, 0xbe, 
	0x9a, 0x13, 0x19, 0x3e, 0xd4, 0x01, 0xb3, 0xbe, 0xae, 0xcd, 0xbd, 0xbe, 
	0xd5, 0xcd, 0xbb, 0xbe, 0xe2, 0xd0, 0x7a, 0xbe, 0x60, 0x9a, 0x2d, 0x3d, 
	0x53, 0x33, 0x89, 0x3e, 0x91, 0xee, 0xc8, 0x3e, 0x4a, 0x3a, 0xbf, 0xbe, 
	0x16, 0xe2, 0x64, 0xbe, 0x11, 0xbb, 0x9a, 0x3e, 0x46, 0xf0, 0x95, 0xbe, 
	0xa6, 0x9a, 0xad, 0xbe, 0x88, 0x1a, 0x16, 0xbd, 0x23, 0x2b, 0x84, 0x3e, 
	0xd1, 0x45, 0xb9, 0xbe, 0x6b, 0x9f, 0xae, 0x3e, 0x8e, 0xda, 0x1e, 0x3e, 
	0x87, 0xa1, 0x9e, 0x3e, 0x07, 0x2b, 0x61, 0xbe, 0xb9, 0x3f, 0x96, 0x3e, 
	0xb0, 0x22, 0xf6, 0x3c, 0x6e, 0x40, 0xa2, 0xbe, 0x0c, 0x00, 0xca, 0x3d, 
	0x1c, 0x0a, 0x9e, 0xbd, 0x07, 0xb1, 0x80, 0xbe, 0x9a, 0x74, 0x14, 0xbe, 
	0x62, 0x48, 0x07, 0x3e, 0x2b, 0x61, 0xa0, 0xbe, 0xce, 0x6f, 0x85, 0xbe, 
	0xba, 0xa0, 0x84, 0xbe, 0x00, 0xb1, 0x2c, 0xbe, 0xaa, 0xc4, 0x1a, 0x3e, 
	0x10, 0xe1, 0xf3, 0xbd, 0x79, 0x2a, 0x8e, 0xbe, 0x2a, 0x7e, 0xc4, 0xbe, 
	0xf3, 0x49, 0xc2, 0x3e, 0xb7, 0xbd, 0x8c, 0xbe, 0x11, 0x8e, 0xa0, 0xbe, 
	0xae, 0xd2, 0x1e, 0x3e, 0x40, 0xeb, 0x6f, 0xbe, 0x87, 0x82, 0xc0, 0xbe, 
	0xfa, 0x00, 0x56, 0x3e, 0xf9, 0xcf, 0x97, 0x3e, 0xc6, 0xc0, 0x29, 0xbe, 
	0xcf, 0x8d, 0xcf, 0x3e, 0x6d, 0x01, 0x95, 0x3e, 0x1c, 0x50, 0xc7, 0xbd, 
	0xa0, 0x4b, 0x82, 0xbd, 0x00, 0x29, 0x91, 0xbe, 0xba, 0xbe, 0x86, 0xbe, 
	0x2f, 0xf9, 0x96, 0xbe, 0x63, 0x67, 0x9d, 0x3e, 0x10, 0x0c, 0x10, 0xbe, 
	0x0c, 0x5d, 0xec, 0x3d, 0xf9, 0xc6, 0xc5, 0x3e, 0xac, 0x41, 0xb7, 0xbd, 
	0x66, 0x84, 0x2d, 0x3e, 0x11, 0x4b, 0xcb, 0x3e, 0xb0, 0x9b, 0xdd, 0xbe, 
	0x8f, 0x7b, 0x69, 0xbe, 0xdd, 0xea, 0xc1, 0x3e, 0x7c, 0x53, 0xa0, 0x3d, 
	0x00, 0x6a, 0xb9, 0x3b, 0x45, 0x7e, 0x41, 0xbe, 0xf0, 0xe3, 0xda, 0xbc, 
	0x22, 0x30, 0xa3, 0xbe, 0x7d, 0x84, 0x9b, 0x3e, 0x20, 0x6d, 0x25, 0xbc, 
	0x12, 0x18, 0x6a, 0x3e, 0x98, 0x6e, 0x30, 0xbd, 0xb2, 0xe3, 0x70, 0x3e, 
	0xdc, 0x9e, 0x19, 0xbe, 0xfc, 0x90, 0x85, 0xbe, 0x46, 0x3d, 0x22, 0x3e, 
	0x47, 0xf8, 0xcf, 0xbe, 0x20, 0x43, 0x3c, 0xbc, 0x06, 0x13, 0x30, 0x3e, 
	0x65, 0x57, 0xaa, 0xbe, 0xd5, 0x9d, 0x64, 0xbe, 0x64, 0x10, 0xc6, 0xbe, 
	0x8e, 0xf1, 0x27, 0x3e, 0xd8, 0xac, 0x31, 0xbd, 0x11, 0x03, 0xc2, 0x3e, 
	0x84, 0x02, 0xd7, 0xbe, 0x8e, 0xbe, 0x20, 0x3e, 0x73, 0x85, 0x99, 0xbe, 
	0xfd, 0xcc, 0xa2, 0x3e, 0x2f, 0x97, 0x9d, 0x3e, 0x6e, 0x94, 0x73, 0x3e, 
	0x80, 0xde, 0x5b, 0xbb, 0x01, 0x26, 0xa2, 0x3e, 0xda, 0x63, 0x68, 0x3e, 
	0x5e, 0xcd, 0x3c, 0x3e, 0xc4, 0x10, 0x87, 0xbd, 0xc5, 0x9c, 0x65, 0xbe, 
	0x23, 0x18, 0x91, 0x3e, 0x2a, 0xc3, 0x52, 0x3e, 0x23, 0x61, 0x9a, 0x3e, 
	0x5d, 0x37, 0x8d, 0x3e, 0xd6, 0xbb, 0x20, 0x3e, 0xd1, 0xc3, 0x8e, 0x3e, 
	0xdb, 0xda, 0x5e, 0xbe, 0xd7, 0x0f, 0xaa, 0xbe, 0x3b, 0x01, 0x96, 0x3e, 
	0xec, 0xd9, 0x9d, 0x3d, 0x65, 0xc4, 0x86, 0xbe, 0x5b, 0x9d, 0xcf, 0x3e, 
	0x2e, 0xd6, 0x06, 0x3e, 0x65, 0xfe, 0x9e, 0xbe, 0xd2, 0x6d, 0x96, 0xbe, 
	0x3b, 0x8f, 0xc9, 0x3e, 0x74, 0x85, 0xc6, 0x3d, 0x40, 0x5e, 0x99, 0x3b, 
	0x10, 0x3e, 0x74, 0xbd, 0x35, 0x31, 0xa2, 0x3e, 0x14, 0x49, 0xc9, 0xbe, 
	0x34, 0x14, 0xa8, 0x3d, 0x86, 0x5d, 0x75, 0x3e, 0x62, 0xb9, 0x9e, 0xbe, 
	0xe7, 0x72, 0xd8, 0x3e, 0xe0, 0x32, 0xf7, 0xbc, 0x21, 0x76, 0x9b, 0x3e, 
	0xd7, 0xe7, 0x87, 0xbe, 0x0f, 0x6b, 0xb0, 0x3e, 0x5c, 0x6f, 0x8c, 0xbd, 
	0x66, 0xa8, 0x62, 0x3e, 0x20, 0x9d, 0x18, 0x3d, 0x83, 0x6d, 0xb3, 0xbe, 
	0xfb, 0xe9, 0x62, 0xbe, 0xab, 0x53, 0xb3, 0x3e, 0x00, 0x69, 0x9a, 0xbe, 
	0xec, 0xad, 0xe1, 0x3d, 0x42, 0x11, 0x1b, 0x3e, 0xfd, 0x74, 0x86, 0x3e, 
	0x00, 0xe4, 0x9f, 0xb9, 0xda, 0x5e, 0x44, 0x3e, 0xb1, 0x2e, 0x95, 0xbe, 
	0x4a, 0xb2, 0x06, 0x3e, 0xb7, 0xb0, 0xb9, 0xbe, 0x4c, 0x0b, 0x69, 0xbe, 
	0x33, 0xce, 0xc1, 0x3e, 0x26, 0xc8, 0xc0, 0xbe, 0x46, 0xa3, 0x87, 0xbe, 
	0xf5, 0x33, 0x9a, 0x3e, 0xbc, 0x77, 0x9a, 0x3d, 0xd8, 0x1c, 0x46, 0x3d, 
	0xea, 0x48, 0x71, 0x3e, 0x71, 0x13, 0xab, 0x3e, 0x7c, 0x0d, 0xb4, 0xbe, 
	0x7d, 0xbf, 0x9f, 0x3e, 0x44, 0xa5, 0xcb, 0xbe, 0x65, 0xba, 0x93, 0x3e, 
	0x02, 0x02, 0x9c, 0xbe, 0x40, 0x17, 0xba, 0xbb, 0x90, 0xb4, 0xbf, 0xbe, 
	0x90, 0xe2, 0xca, 0xbc, 0x80, 0xbc, 0xf3, 0xbc, 0x50, 0xc8, 0x9f, 0xbc, 
	0x62, 0xf2, 0x26, 0xbe, 0x1a, 0xe9, 0x0f, 0xbe, 0xaf, 0x25, 0x4c, 0xbe, 
	0xf6, 0xa4, 0x21, 0x3e, 0x76, 0xf2, 0x3a, 0x3e, 0x00, 0x00, 0x00, 0x00, 
	0x00, 0x00, 0x00, 0x00, 0x00, 0x00, 0x00, 0x00, 0x00, 0x00, 0x06, 0x00, 
	0x08, 0x00, 0x04, 0x00, 0x06, 0x00, 0x00, 0x00, 0x04, 0x00, 0x00, 0x00, 
	0x40, 0x06, 0x00, 0x00, 0x30, 0xca, 0x56, 0xfa, 0x05, 0xca, 0x44, 0x8a, 
	0x2a, 0xf0, 0xb7, 0xfd, 0xf9, 0x3e, 0xab, 0xc0, 0xb5, 0x31, 0x3d, 0x19, 
	0xfa, 0xbb, 0xf7, 0xab, 0xdd, 0x60, 0xa4, 0xb7, 0x44, 0x24, 0x69, 0xc5, 
	0x3e, 0x50, 0x86, 0xc5, 0x71, 0x12, 0x1d, 0x34, 0xc5, 0x98, 0x74, 0x77, 
	0x9c, 0x3c, 0x83, 0x9f, 0x0f, 0x7b, 0xde, 0xe8, 0x7c, 0xee, 0x09, 0xc7, 
	0x0e, 0xf4, 0x73, 0x7e, 0xe3, 0x63, 0xdf, 0x4d, 0x11, 0x09, 0x26, 0xd4, 
	0x4a, 0x7a, 0x6a, 0x7b, 0x8b, 0xe1, 0x8e, 0xcf, 0x5a, 0x41, 0x9b, 0x49, 
	0xa3, 0x98, 0xdc, 0xe6, 0xf6, 0x4c, 0xfc, 0xf1, 0x05, 0xf2, 0xa2, 0x58, 
	0x55, 0xca, 0xe2, 0x86, 0x75, 0x0d, 0x93, 0xf4, 0x82, 0x05, 0x97, 0x43, 
	0x3b, 0x48, 0xa6, 0x5b, 0x97, 0x6f, 0x08, 0x91, 0x45, 0xd5, 0x8e, 0xc8, 
	0x63, 0x3d, 0xfe, 0xc1, 0x1d, 0xbb, 0x98, 0x20, 0x72, 0x19, 0xe2, 0xd7, 
	0xf9, 0xaa, 0xba, 0x09, 0xc4, 0xb7, 0xce, 0x21, 0x87, 0x96, 0x40, 0x2c, 
	0xbb, 0x53, 0xa3, 0xe2, 0xdd, 0x32, 0xf3, 0xa4, 0x95, 0x1a, 0x7b, 0x2e, 
	0xde, 0x52, 0x54, 0x19, 0xe6, 0x38, 0x98, 0xee, 0xc1, 0x52, 0x0d, 0xe1, 
	0x16, 0xbb, 0xac, 0xed, 0x51, 0x5f, 0x87, 0xad, 0x96, 0x42, 0x68, 0x9a, 
	0x28, 0x20, 0xaf, 0x3c, 0x24, 0x8d, 0x29, 0x18, 0x08, 0xaf, 0x88, 0x71, 
	0x3b, 0x45, 0x10, 0x22, 0x75, 0x1a, 0xa3, 0x79, 0xa9, 0xdb, 0xc5, 0xe7, 
	0x88, 0x43, 0x90, 0x8c, 0x2a, 0x12, 0xe3, 0x78, 0xd9, 0x82, 0x5c, 0x10, 
	0x8a, 0x40, 0x74, 0x7a, 0xa9, 0xfa, 0x6b, 0x41, 0x54, 0x46, 0xed, 0xb3, 
	0x5a, 0xf7, 0xf9, 0x54, 0x4d, 0x99, 0x4b, 0xaf, 0x81, 0xd9, 0x57, 0x35, 
	0xa2, 0x58, 0x31, 0xdc, 0x29, 0xfe, 0xb7, 0x1e, 0x5e, 0x1b, 0x67, 0xcf, 
	0x29, 0x60, 0x93, 0xf8, 0x26, 0x74, 0x38, 0xda, 0x09, 0x54, 0x6d, 0xe2, 
	0x24, 0xa6, 0x40, 0x1c, 0x0b, 0x99, 0x0d, 0x77, 0x51, 0x41, 0xd2, 0x1e, 
	0x9a, 0xc1, 0x17, 0x32, 0x91, 0xf2, 0x88, 0xa0, 0x74, 0x36, 0x68, 0x1d, 
	0xf2, 0x41, 0x3c, 0x6a, 0xeb, 0x4c, 0x97, 0x82, 0xa4, 0xa0, 0x29, 0x85, 
	0x57, 0xef, 0x87, 0x30, 0x60, 0x7a, 0xf1, 0x60, 0x5d, 0x69, 0x1a, 0x1c, 
	0x6c, 0x81, 0xea, 0xe4, 0x0b, 0x9a, 0xb4, 0xcd, 0x36, 0x55, 0x5d, 0xac, 
	0x05, 0xa0, 0xe6, 0xc7, 0x21, 0x1e, 0x6e, 0x9b, 0x26, 0x54, 0xd2, 0x5d, 
	0x0a, 0xd8, 0x9d, 0x22, 0x2c, 0x5b, 0x8d, 0x34, 0xfa, 0x95, 0x3a, 0xa5, 
	0x00, 0xbf, 0xcd, 0xc9, 0x7a, 0xd2, 0xb8, 0x68, 0xc2, 0x8e, 0x43, 0x2f, 
	0xe0, 0xbc, 0x53, 0xce, 0x59, 0x13, 0xa9, 0x5f, 0x24, 0x96, 0xf7, 0x84, 
	0x9a, 0xc4, 0x41, 0x11, 0x38, 0x2a, 0xeb, 0xb9, 0x58, 0x9a, 0x93, 0x94, 
	0x9f, 0xb1, 0x7e, 0xeb, 0xe2, 0xca, 0x7b, 0x0b, 0x28, 0xe9, 0x55, 0x6e, 
	0x56, 0xf2, 0x95, 0x38, 0xf9, 0xf7, 0xce, 0x6f, 0x2b, 0xf7, 0x3f, 0x82, 
	0xff, 0x55, 0x04, 0xdb, 0x38, 0xc5, 0xf3, 0xe4, 0x52, 0x0c, 0xca, 0xaf, 
	0xf9, 0xb3, 0xc8, 0xfc, 0x57, 0x34, 0x89, 0x87, 0xb0, 0xf6, 0xf3, 0xd9, 
	0xd3, 0x1c, 0xf4, 0xf4, 0x44, 0x61, 0x9b, 0xe2, 0x9b, 0xb1, 0x2c, 0x0f, 
	0x5a, 0x54, 0xbb, 0x8c, 0x08, 0xb9, 0x76, 0x18, 0x56, 0xef, 0xf4, 0xa4, 
	0x38, 0x0b, 0x28, 0x99, 0x07, 0xf8, 0xd4, 0xef, 0x1a, 0x87, 0x3e, 0xe1, 
	0xe7, 0xfb, 0x19, 0x4e, 0x51, 0x4e, 0x05, 0x47, 0x4f, 0x01, 0xd0, 0x74, 
	0x4a, 0x9f, 0x3a, 0x4d, 0xd5, 0xd8, 0x79, 0xc1, 0x45, 0x7f, 0xee, 0xbf, 
	0x65, 0xb0, 0x75, 0xf7, 0xb0, 0xd7, 0x6a, 0xc6, 0xcd, 0xd5, 0xcc, 0x39, 
	0x3e, 0x67, 0x58, 0xcb, 0xc3, 0x7b, 0x71, 0xc7, 0x2b, 0xb2, 0x1b, 0x54, 
	0x43, 0x89, 0xa5, 0xce, 0x5a, 0x5e, 0x0a, 0x56, 0x5e, 0x24, 0x36, 0x72, 
	0x39, 0xa6, 0xe9, 0x82, 0x98, 0x8a, 0xe6, 0xe9, 0x5d, 0xa3, 0x0b, 0x9f, 
	0xd7, 0x21, 0x39, 0x69, 0xdb, 0x0d, 0xf2, 0x18, 0x39, 0x24, 0x34, 0xf3, 
	0xc6, 0x1a, 0xbd, 0xc1, 0x0a, 0x76, 0xa5, 0x7e, 0xc0, 0xdf, 0x9e, 0x99, 
	0x9c, 0xf8, 0xb9, 0xc0, 0x36, 0x75, 0x03, 0xb6, 0xed, 0xf2, 0x76, 0xd5, 
	0x14, 0x05, 0xc4, 0x1f, 0x68, 0x99, 0xa5, 0x56, 0x9d, 0x73, 0xc3, 0x3e, 
	0xa9, 0x65, 0x67, 0xf9, 0x25, 0x04, 0x85, 0xd1, 0xe0, 0x05, 0x8d, 0x62, 
	0x12, 0x7e, 0x2b, 0xce, 0x41, 0x1e, 0x54, 0x7b, 0x2c, 0x78, 0xce, 0x83, 
	0x39, 0xef, 0xcb, 0x16, 0x04, 0x5b, 0x68, 0x5a, 0x63, 0x42, 0x9a, 0x00, 
	0x03, 0xbb, 0x51, 0xea, 0x13, 0x84, 0xcb, 0x29, 0x04, 0x24, 0x0b, 0x8e, 
	0x09, 0xad, 0x1d, 0x3b, 0x21, 0x6b, 0x1d, 0x3e, 0xaa, 0xbb, 0x6a, 0x4f, 
	0x28, 0x41, 0xff, 0x33, 0x35, 0x79, 0xb5, 0x27, 0xe0, 0x3d, 0xa4, 0x0e, 
	0xf3, 0xd9, 0xea, 0x35, 0x2e, 0x2f, 0xcb, 0x4b, 0x6c, 0x7b, 0x84, 0x3a, 
	0x88, 0x17, 0x66, 0x25, 0x3f, 0x79, 0x10, 0xba, 0xb1, 0x5f, 0xa1, 0x38, 
	0xc7, 0x35, 0xcc, 0x44, 0x38, 0xac, 0x7d, 0xcb, 0xbd, 0x0a, 0x2f, 0x4c, 
	0x1e, 0x35, 0x82, 0x40, 0x4a, 0xaa, 0x98, 0xc8, 0x87, 0x53, 0xfa, 0xf4, 
	0x98, 0x16, 0x96, 0x64, 0x83, 0x67, 0xa5, 0xcc, 0x7e, 0xcf, 0x9b, 0xe9, 
	0x1d, 0x2e, 0x04, 0x9e, 0x29, 0x49, 0x0a, 0x83, 0x79, 0x70, 0xe2, 0xd6, 
	0xbe, 0x55, 0x67, 0x2e, 0x36, 0x48, 0xe8, 0x72, 0xef, 0x04, 0x36, 0x8e, 
	0x9f, 0xbc, 0x60, 0x8c, 0x17, 0xa3, 0x0a, 0x55, 0x14, 0x5b, 0xa3, 0x51, 
	0x4a, 0x17, 0x1a, 0x97, 0x6d, 0x35, 0x7c, 0xb3, 0x75, 0xbf, 0x62, 0xdc, 
	0x76, 0xf4, 0x88, 0x21, 0xb7, 0xe2, 0x3a, 0x2f, 0x35, 0x33, 0xcd, 0x0b, 
	0x5e, 0x35, 0xb7, 0x74, 0xfd, 0xd4, 0x7d, 0xd2, 0x5c, 0x1d, 0xfb, 0x48, 
	0x6c, 0x88, 0xbc, 0x64, 0x62, 0xff, 0xc0, 0x2d, 0x53, 0x44, 0x11, 0xcf, 
	0x4e, 0x26, 0xf9, 0x1d, 0x5e, 0xb7, 0x74, 0x03, 0x7c, 0xc6, 0x9a, 0xfa, 
	0xdc, 0x43, 0xd1, 0xc5, 0x8b, 0x4c, 0x4b, 0xdd, 0x05, 0xce, 0xdb, 0x3d, 
	0x6d, 0x64, 0x03, 0x16, 0x0d, 0x9b, 0x3d, 0xd2, 0x59, 0x48, 0x69, 0x88, 
	0x31, 0xff, 0x3b, 0x8a, 0x18, 0xb8, 0x9f, 0x60, 0x3f, 0x16, 0xa8, 0x24, 
	0x18, 0x70, 0x46, 0xa5, 0x41, 0x18, 0x02, 0x8a, 0x1b, 0x6b, 0xd0, 0xe9, 
	0xf0, 0xfc, 0xfb, 0xb0, 0xf9, 0x41, 0xe6, 0x13, 0x9d, 0x88, 0xef, 0xc7, 
	0x31, 0x31, 0xbd, 0x1b, 0xe9, 0xee, 0x92, 0x49, 0xaf, 0x7c, 0xf4, 0xe8, 
	0x36, 0x3a, 0xb0, 0xa7, 0x50, 0xad, 0x59, 0xa0, 0x9a, 0x89, 0x20, 0x18, 
	0x02, 0x0e, 0xd2, 0xf5, 0x3a, 0xbc, 0x16, 0x4c, 0xd0, 0xb3, 0x3f, 0x17, 
	0xd3, 0x18, 0xc5, 0x3f, 0xe6, 0xb2, 0x01, 0x0e, 0x38, 0x63, 0x28, 0x07, 
	0x0c, 0x49, 0x81, 0x8c, 0x23, 0xeb, 0x69, 0xf2, 0xec, 0xa2, 0x5f, 0x52, 
	0x91, 0x87, 0x50, 0x2e, 0x85, 0x60, 0xe5, 0x34, 0xdc, 0x3a, 0x98, 0x64, 
	0x33, 0x32, 0xf2, 0x46, 0x2f, 0x27, 0xdf, 0x37, 0x1f, 0x54, 0xcd, 0x1e, 
	0x72, 0x6a, 0x09, 0x2e, 0xc5, 0xec, 0xc8, 0x5c, 0xdc, 0x7a, 0x24, 0xfa, 
	0x24, 0x18, 0x6c, 0x4a, 0x4b, 0x45, 0xad, 0xfd, 0x0b, 0xf2, 0x15, 0xab, 
	0xa1, 0xee, 0xcc, 0x66, 0xbc, 0x0f, 0x91, 0x76, 0xff, 0xd2, 0xbe, 0x91, 
	0xfb, 0xb5, 0x08, 0xdf, 0x3a, 0x17, 0xe7, 0xf4, 0xab, 0x78, 0x05, 0x76, 
	0x99, 0xaf, 0x30, 0x82, 0xec, 0xc4, 0x36, 0x51, 0xe0, 0x5b, 0x2e, 0xd3, 
	0x4e, 0x56, 0x3e, 0x28, 0xae, 0x0f, 0x0a, 0x55, 0xa3, 0xd7, 0xfc, 0xe6, 
	0xee, 0xb7, 0x6a, 0x78, 0xfe, 0xd0, 0x4f, 0x53, 0x75, 0x02, 0x6f, 0x15, 
	0xee, 0xdf, 0x8a, 0xbf, 0xa2, 0x9b, 0xf9, 0x63, 0x20, 0xa0, 0x66, 0xc0, 
	0x4e, 0x18, 0x8b, 0x37, 0x25, 0x88, 0x47, 0xa6, 0x2b, 0xbd, 0x9c, 0xf9, 
	0x60, 0x00, 0xdb, 0x88, 0xa0, 0x7c, 0x4f, 0xe2, 0xef, 0xa4, 0x17, 0x53, 
	0x53, 0xd5, 0x4e, 0xd9, 0xc1, 0x3b, 0xea, 0x91, 0x5e, 0x53, 0x0b, 0xd9, 
	0xea, 0xfa, 0x12, 0x9f, 0xb1, 0x78, 0x44, 0xc0, 0x07, 0xe9, 0x4d, 0xab, 
	0x58, 0xc0, 0x47, 0x93, 0x02, 0xf3, 0xae, 0xaf, 0xdc, 0xb6, 0x14, 0x3e, 
	0x83, 0xdc, 0xb9, 0x43, 0x88, 0xc7, 0x97, 0x47, 0xa2, 0xa4, 0x0f, 0x7d, 
	0x73, 0x1f, 0x3c, 0xcb, 0x5e, 0x68, 0xfd, 0x22, 0x7a, 0x5e, 0x52, 0x97, 
	0x50, 0x88, 0x7f, 0x6d, 0x97, 0x5a, 0x31, 0x37, 0xf0, 0xb6, 0x25, 0x63, 
	0x0a, 0x34, 0x12, 0xad, 0x3c, 0x06, 0x57, 0x8e, 0x29, 0xf0, 0x58, 0xd9, 
	0x48, 0xb3, 0x21, 0xdf, 0x63, 0x91, 0x40, 0x31, 0xe6, 0x08, 0x3d, 0x70, 
	0xdd, 0x57, 0x1e, 0xac, 0xcb, 0xd4, 0xbd, 0x1e, 0x55, 0x9b, 0x55, 0x2b, 
	0x07, 0x82, 0x93, 0x5b, 0x3f, 0x48, 0xe1, 0x0b, 0x6b, 0xce, 0x4a, 0x9f, 
	0x5f, 0x0f, 0xae, 0x5d, 0xf8, 0xd4, 0x25, 0x2c, 0x89, 0x95, 0x7e, 0x2a, 
	0xc6, 0x48, 0xde, 0x6b, 0x02, 0x0a, 0xd9, 0x72, 0xbb, 0x1b, 0xd6, 0xc2, 
	0xa5, 0x66, 0xbd, 0x31, 0xdc, 0x52, 0x12, 0x5e, 0xe7, 0x83, 0x18, 0x0f, 
	0x76, 0x5d, 0xd7, 0x78, 0xaf, 0x7b, 0x6a, 0x6d, 0x95, 0x6d, 0xc2, 0x99, 
	0x69, 0x7f, 0xf6, 0x0f, 0xf1, 0x92, 0x88, 0x99, 0x24, 0x13, 0x28, 0xce, 
	0x9e, 0x16, 0x66, 0xab, 0x47, 0x94, 0x5f, 0x6a, 0x89, 0xca, 0xeb, 0x7a, 
	0x51, 0xce, 0x78, 0x9d, 0xbf, 0x5f, 0xc6, 0x7e, 0xa5, 0x35, 0xa6, 0xa0, 
	0xc6, 0x72, 0xfb, 0x67, 0xc5, 0xb7, 0x15, 0x12, 0xf6, 0x0f, 0x85, 0x26, 
	0xab, 0x92, 0x3b, 0xa5, 0x72, 0x4e, 0x1a, 0xa2, 0x56, 0xc6, 0xe5, 0xa0, 
	0xb7, 0x25, 0x19, 0x8c, 0x30, 0xc6, 0xd9, 0x4f, 0x06, 0xb7, 0xc8, 0xe8, 
	0x96, 0x31, 0x84, 0x30, 0x61, 0xed, 0x18, 0xe0, 0xa5, 0x49, 0x30, 0xa2, 
	0xd9, 0xfe, 0xe2, 0xde, 0xdf, 0xf0, 0x2c, 0x5a, 0x04, 0xf2, 0x3e, 0x92, 
	0x6e, 0xb0, 0x5d, 0x74, 0x34, 0xcd, 0x5c, 0xb3, 0x0e, 0x70, 0xbc, 0x60, 
	0x26, 0x87, 0xaa, 0x88, 0xa3, 0x51, 0x4f, 0x6e, 0xdb, 0x14, 0xb9, 0xec, 
	0x3f, 0x6f, 0x8c, 0xa1, 0x46, 0x6c, 0xec, 0x99, 0x48, 0xb6, 0x31, 0x1c, 
	0xc1, 0x3c, 0x74, 0xbe, 0xe0, 0xaf, 0x78, 0x2a, 0xc7, 0x41, 0x68, 0xaa, 
	0x5f, 0xaf, 0xe4, 0x18, 0x31, 0xbb, 0xd0, 0xab, 0x7d, 0xe9, 0xfa, 0x93, 
	0xce, 0x4b, 0x92, 0x2d, 0x20, 0xc4, 0x9a, 0x53, 0x39, 0x78, 0x12, 0x74, 
	0x3e, 0x27, 0xe6, 0xe9, 0xbb, 0x21, 0x9d, 0xc7, 0x94, 0x8e, 0x8a, 0x4c, 
	0x15, 0x8a, 0x1d, 0x84, 0xd9, 0xaa, 0x4e, 0x29, 0xbd, 0x55, 0x15, 0x56, 
	0xaa, 0x7c, 0x40, 0xde, 0x90, 0x0b, 0xfa, 0xed, 0xd4, 0x58, 0x68, 0xae, 
	0x92, 0xa1, 0x15, 0x8e, 0x94, 0x77, 0x97, 0xd6, 0xaf, 0x35, 0x29, 0xa1, 
	0xf8, 0x56, 0xd7, 0x09, 0xbe, 0xee, 0x90, 0xbb, 0x3c, 0xf4, 0xb1, 0x47, 
	0x25, 0x25, 0x52, 0xa9, 0xba, 0x58, 0xa7, 0x2e, 0x82, 0xba, 0xb6, 0xb5, 
	0xa7, 0x5a, 0x4d, 0xe4, 0xcd, 0x51, 0xe9, 0x76, 0x46, 0x4c, 0xef, 0x4f, 
	0xd3, 0xce, 0xcb, 0x6b, 0x4d, 0x26, 0xf8, 0x1c, 0xe9, 0x31, 0x10, 0x57, 
	0x34, 0x30, 0x0a, 0xd5, 0x6f, 0x8a, 0xba, 0x3b, 0x47, 0x69, 0x6f, 0xe9, 
	0xd2, 0x0b, 0x53, 0xb7, 0x62, 0x07, 0x70, 0xbd, 0x84, 0x66, 0xc3, 0xea, 
	0x32, 0xe2, 0x97, 0x49, 0xeb, 0x7f, 0x74, 0xbb, 0xd5, 0x57, 0xe0, 0xae, 
	0x6d, 0xe5, 0x74, 0xbd, 0x35, 0xa1, 0x84, 0xd5, 0x99, 0xc5, 0xad, 0x47, 
	0xc6, 0x81, 0xb5, 0x62, 0xd6, 0x4f, 0xbd, 0xd7, 0xb6, 0x92, 0x9c, 0xd3, 
	0x1f, 0x10, 0x11, 0xe6, 0x9e, 0x45, 0x2b, 0xe9, 0xe6, 0xc2, 0x3b, 0x4f, 
	0xf6, 0xde, 0x18, 0x19, 0xc6, 0x62, 0xa3, 0xa9, 0x8d, 0x18, 0xac, 0x2f, 
	0x2b, 0x05, 0x53, 0xea, 0xfe, 0x04, 0x0b, 0x00, 0x00, 0x00, 0x00, 0x00, 
	0x00, 0x00, 0x00, 0x00, 0x00, 0x00, 0x00, 0x00, 0x50, 0xfb, 0xff, 0xff, 
	0x00, 0x00, 0x00, 0x00, 0x00, 0x00, 0x00, 0x00, 0x00, 0x00, 0x00, 0x00, 
	0x60, 0xfb, 0xff, 0xff, 0x0f, 0x00, 0x00, 0x00, 0x4d, 0x4c, 0x49, 0x52, 
	0x20, 0x43, 0x6f, 0x6e, 0x76, 0x65, 0x72, 0x74, 0x65, 0x64, 0x2e, 0x00, 
	0x01, 0x00, 0x00, 0x00, 0x14, 0x00, 0x00, 0x00, 0x00, 0x00, 0x0e, 0x00, 
	0x18, 0x00, 0x04, 0x00, 0x08, 0x00, 0x0c, 0x00, 0x10, 0x00, 0x14, 0x00, 
	0x0e, 0x00, 0x00, 0x00, 0x3c, 0x01, 0x00, 0x00, 0x30, 0x01, 0x00, 0x00, 
	0x24, 0x01, 0x00, 0x00, 0x14, 0x00, 0x00, 0x00, 0x04, 0x00, 0x00, 0x00, 
	0x04, 0x00, 0x00, 0x00, 0x6d, 0x61, 0x69, 0x6e, 0x00, 0x00, 0x00, 0x00, 
	0x04, 0x00, 0x00, 0x00, 0xc8, 0x00, 0x00, 0x00, 0x78, 0x00, 0x00, 0x00, 
	0x34, 0x00, 0x00, 0x00, 0x10, 0x00, 0x00, 0x00, 0x00, 0x00, 0x0a, 0x00, 
	0x10, 0x00, 0x04, 0x00, 0x08, 0x00, 0x0c, 0x00, 0x0a, 0x00, 0x00, 0x00, 
	0x01, 0x00, 0x00, 0x00, 0x10, 0x00, 0x00, 0x00, 0x04, 0x00, 0x00, 0x00, 
	0x01, 0x00, 0x00, 0x00, 0x07, 0x00, 0x00, 0x00, 0x01, 0x00, 0x00, 0x00, 
	0x06, 0x00, 0x00, 0x00, 0x82, 0xff, 0xff, 0xff, 0x00, 0x00, 0x00, 0x08, 
	0x18, 0x00, 0x00, 0x00, 0x0c, 0x00, 0x00, 0x00, 0x04, 0x00, 0x00, 0x00, 
	0x08, 0xfc, 0xff, 0xff, 0x01, 0x00, 0x00, 0x00, 0x06, 0x00, 0x00, 0x00, 
	0x03, 0x00, 0x00, 0x00, 0x05, 0x00, 0x00, 0x00, 0x03, 0x00, 0x00, 0x00, 
	0xff, 0xff, 0xff, 0xff, 0x00, 0x00, 0x0e, 0x00, 0x16, 0x00, 0x00, 0x00, 
	0x08, 0x00, 0x0c, 0x00, 0x07, 0x00, 0x10, 0x00, 0x0e, 0x00, 0x00, 0x00, 
	0x00, 0x00, 0x00, 0x08, 0x24, 0x00, 0x00, 0x00, 0x18, 0x00, 0x00, 0x00, 
	0x0c, 0x00, 0x00, 0x00, 0x00, 0x00, 0x06, 0x00, 0x08, 0x00, 0x07, 0x00, 
	0x06, 0x00, 0x00, 0x00, 0x00, 0x00, 0x00, 0x01, 0x01, 0x00, 0x00, 0x00, 
	0x05, 0x00, 0x00, 0x00, 0x03, 0x00, 0x00, 0x00, 0x04, 0x00, 0x00, 0x00, 
	0x02, 0x00, 0x00, 0x00, 0xff, 0xff, 0xff, 0xff, 0x00, 0x00, 0x0e, 0x00, 
	0x14, 0x00, 0x00, 0x00, 0x08, 0x00, 0x0c, 0x00, 0x07, 0x00, 0x10, 0x00, 
	0x0e, 0x00, 0x00, 0x00, 0x00, 0x00, 0x00, 0x08, 0x28, 0x00, 0x00, 0x00, 
	0x1c, 0x00, 0x00, 0x00, 0x10, 0x00, 0x00, 0x00, 0x0c, 0x00, 0x08, 0x00, 
	0x06, 0x00, 0x00, 0x00, 0x00, 0x00, 0x07, 0x00, 0x0c, 0x00, 0x00, 0x00, 
	0x00, 0x00, 0x01, 0x01, 0x01, 0x00, 0x00, 0x00, 0x04, 0x00, 0x00, 0x00, 
	0x03, 0x00, 0x00, 0x00, 0x00, 0x00, 0x00, 0x00, 0x01, 0x00, 0x00, 0x00, 
	0xff, 0xff, 0xff, 0xff, 0x01, 0x00, 0x00, 0x00, 0x07, 0x00, 0x00, 0x00, 
	0x01, 0x00, 0x00, 0x00, 0x00, 0x00, 0x00, 0x00, 0x08, 0x00, 0x00, 0x00, 
	0x08, 0x03, 0x00, 0x00, 0x80, 0x02, 0x00, 0x00, 0x28, 0x02, 0x00, 0x00, 
	0xd0, 0x01, 0x00, 0x00, 0x4c, 0x01, 0x00, 0x00, 0xc0, 0x00, 0x00, 0x00, 
	0x4c, 0x00, 0x00, 0x00, 0x04, 0x00, 0x00, 0x00, 0x2c, 0xfd, 0xff, 0xff, 
	0x34, 0x00, 0x00, 0x00, 0x08, 0x00, 0x00, 0x00, 0x1c, 0x00, 0x00, 0x00, 
	0x14, 0x00, 0x00, 0x00, 0x04, 0x00, 0x00, 0x00, 0x02, 0x00, 0x00, 0x00, 
	0xff, 0xff, 0xff, 0xff, 0x01, 0x00, 0x00, 0x00, 0x18, 0xfd, 0xff, 0xff, 
	0x08, 0x00, 0x00, 0x00, 0x49, 0x64, 0x65, 0x6e, 0x74, 0x69, 0x74, 0x79, 
	0x00, 0x00, 0x00, 0x00, 0x02, 0x00, 0x00, 0x00, 0x01, 0x00, 0x00, 0x00, 
	0x01, 0x00, 0x00, 0x00, 0x70, 0xfd, 0xff, 0xff, 0x60, 0x00, 0x00, 0x00, 
	0x07, 0x00, 0x00, 0x00, 0x1c, 0x00, 0x00, 0x00, 0x14, 0x00, 0x00, 0x00, 
	0x04, 0x00, 0x00, 0x00, 0x02, 0x00, 0x00, 0x00, 0xff, 0xff, 0xff, 0xff, 
	0x01, 0x00, 0x00, 0x00, 0x5c, 0xfd, 0xff, 0xff, 0x34, 0x00, 0x00, 0x00, 
	0x73, 0x65, 0x71, 0x75, 0x65, 0x6e, 0x74, 0x69, 0x61, 0x6c, 0x2f, 0x64, 
	0x65, 0x6e, 0x73, 0x65, 0x5f, 0x32, 0x2f, 0x4d, 0x61, 0x74, 0x4d, 0x75, 
	0x6c, 0x3b, 0x73, 0x65, 0x71, 0x75, 0x65, 0x6e, 0x74, 0x69, 0x61, 0x6c, 
	0x2f, 0x64, 0x65, 0x6e, 0x73, 0x65, 0x5f, 0x32, 0x2f, 0x42, 0x69, 0x61, 
	0x73, 0x41, 0x64, 0x64, 0x00, 0x00, 0x00, 0x00, 0x02, 0x00, 0x00, 0x00, 
	0x01, 0x00, 0x00, 0x00, 0x01, 0x00, 0x00, 0x00, 0xe0, 0xfd, 0xff, 0xff, 
	0x78, 0x00, 0x00, 0x00, 0x06, 0x00, 0x00, 0x00, 0x1c, 0x00, 0x00, 0x00, 
	0x14, 0x00, 0x00, 0x00, 0x04, 0x00, 0x00, 0x00, 0x02, 0x00, 0x00, 0x00, 
	0xff, 0xff, 0xff, 0xff, 0x10, 0x00, 0x00, 0x00, 0xcc, 0xfd, 0xff, 0xff, 
	0x4c, 0x00, 0x00, 0x00, 0x73, 0x65, 0x71, 0x75, 0x65, 0x6e, 0x74, 0x69, 
	0x61, 0x6c, 0x2f, 0x64, 0x65, 0x6e, 0x73, 0x65, 0x5f, 0x31, 0x2f, 0x4d, 
	0x61, 0x74, 0x4d, 0x75, 0x6c, 0x3b, 0x73, 0x65, 0x71, 0x75, 0x65, 0x6e, 
	0x74, 0x69, 0x61, 0x6c, 0x2f, 0x64, 0x65, 0x6e, 0x73, 0x65, 0x5f, 0x31, 
	0x2f, 0x42, 0x69, 0x61, 0x73, 0x41, 0x64, 0x64, 0x3b, 0x73, 0x65, 0x71, 
	0x75, 0x65, 0x6e, 0x74, 0x69, 0x61, 0x6c, 0x2f, 0x64, 0x65, 0x6e, 0x73, 
	0x65, 0x5f, 0x31, 0x2f, 0x52, 0x65, 0x6c, 0x75, 0x00, 0x00, 0x00, 0x00, 
	0x02, 0x00, 0x00, 0x00, 0x01, 0x00, 0x00, 0x00, 0x10, 0x00, 0x00, 0x00, 
	0x68, 0xfe, 0xff, 0xff, 0x70, 0x00, 0x00, 0x00, 0x05, 0x00, 0x00, 0x00, 
	0x1c, 0x00, 0x00, 0x00, 0x14, 0x00, 0x00, 0x00, 0x04, 0x00, 0x00, 0x00, 
	0x02, 0x00, 0x00, 0x00, 0xff, 0xff, 0xff, 0xff, 0x10, 0x00, 0x00, 0x00, 
	0x54, 0xfe, 0xff, 0xff, 0x46, 0x00, 0x00, 0x00, 0x73, 0x65, 0x71, 0x75, 
	0x65, 0x6e, 0x74, 0x69, 0x61, 0x6c, 0x2f, 0x64, 0x65, 0x6e, 0x73, 0x65, 
	0x2f, 0x4d, 0x61, 0x74, 0x4d, 0x75, 0x6c, 0x3b, 0x73, 0x65, 0x71, 0x75, 
	0x65, 0x6e, 0x74, 0x69, 0x61, 0x6c, 0x2f, 0x64, 0x65, 0x6e, 0x73, 0x65, 
	0x2f, 0x42, 0x69, 0x61, 0x73, 0x41, 0x64, 0x64, 0x3b, 0x73, 0x65, 0x71, 
	0x75, 0x65, 0x6e, 0x74, 0x69, 0x61, 0x6c, 0x2f, 0x64, 0x65, 0x6e, 0x73, 
	0x65, 0x2f, 0x52, 0x65, 0x6c, 0x75, 0x00, 0x00, 0x02, 0x00, 0x00, 0x00, 
	0x01, 0x00, 0x00, 0x00, 0x10, 0x00, 0x00, 0x00, 0xba, 0xff, 0xff, 0xff, 
	0x34, 0x00, 0x00, 0x00, 0x04, 0x00, 0x00, 0x00, 0x0c, 0x00, 0x00, 0x00, 
	0x04, 0x00, 0x00, 0x00, 0xc4, 0xfe, 0xff, 0xff, 0x19, 0x00, 0x00, 0x00, 
	0x73, 0x65, 0x71, 0x75, 0x65, 0x6e, 0x74, 0x69, 0x61, 0x6c, 0x2f, 0x64, 
	0x65, 0x6e, 0x73, 0x65, 0x5f, 0x32, 0x2f, 0x4d, 0x61, 0x74, 0x4d, 0x75, 
	0x6c, 0x00, 0x00, 0x00, 0x02, 0x00, 0x00, 0x00, 0x01, 0x00, 0x00, 0x00, 
	0x10, 0x00, 0x00, 0x00, 0x00, 0x00, 0x0e, 0x00, 0x14, 0x00, 0x04, 0x00, 
	0x00, 0x00, 0x08, 0x00, 0x0c, 0x00, 0x10, 0x00, 0x0e, 0x00, 0x00, 0x00, 
	0x34, 0x00, 0x00, 0x00, 0x03, 0x00, 0x00, 0x00, 0x0c, 0x00, 0x00, 0x00, 
	0x04, 0x00, 0x00, 0x00, 0x18, 0xff, 0xff, 0xff, 0x19, 0x00, 0x00, 0x00, 
	0x73, 0x65, 0x71, 0x75, 0x65, 0x6e, 0x74, 0x69, 0x61, 0x6c, 0x2f, 0x64, 
	0x65, 0x6e, 0x73, 0x65, 0x5f, 0x31, 0x2f, 0x4d, 0x61, 0x74, 0x4d, 0x75, 
	0x6c, 0x00, 0x00, 0x00, 0x02, 0x00, 0x00, 0x00, 0x10, 0x00, 0x00, 0x00, 
	0x10, 0x00, 0x00, 0x00, 0x00, 0x00, 0x0e, 0x00, 0x18, 0x00, 0x08, 0x00, 
	0x07, 0x00, 0x0c, 0x00, 0x10, 0x00, 0x14, 0x00, 0x0e, 0x00, 0x00, 0x00, 
	0x00, 0x00, 0x00, 0x09, 0x5c, 0x00, 0x00, 0x00, 0x02, 0x00, 0x00, 0x00, 
	0x38, 0x00, 0x00, 0x00, 0x10, 0x00, 0x00, 0x00, 0x0c, 0x00, 0x0c, 0x00, 
	0x00, 0x00, 0x00, 0x00, 0x04, 0x00, 0x08, 0x00, 0x0c, 0x00, 0x00, 0x00, 
	0x18, 0x00, 0x00, 0x00, 0x04, 0x00, 0x00, 0x00, 0x01, 0x00, 0x00, 0x00, 
	0x00, 0x00, 0x00, 0x00, 0x00, 0x00, 0x00, 0x00, 0x00, 0x00, 0x00, 0x00, 
	0x01, 0x00, 0x00, 0x00, 0x6f, 0xb4, 0xea, 0x3a, 0x17, 0x00, 0x00, 0x00, 
	0x73, 0x65, 0x71, 0x75, 0x65, 0x6e, 0x74, 0x69, 0x61, 0x6c, 0x2f, 0x64, 
	0x65, 0x6e, 0x73, 0x65, 0x2f, 0x4d, 0x61, 0x74, 0x4d, 0x75, 0x6c, 0x00, 
	0x02, 0x00, 0x00, 0x00, 0x10, 0x00, 0x00, 0x00, 0x64, 0x00, 0x00, 0x00, 
	0x14, 0x00, 0x18, 0x00, 0x04, 0x00, 0x00, 0x00, 0x08, 0x00, 0x0c, 0x00, 
	0x10, 0x00, 0x00, 0x00, 0x00, 0x00, 0x14, 0x00, 0x14, 0x00, 0x00, 0x00, 
	0x38, 0x00, 0x00, 0x00, 0x01, 0x00, 0x00, 0x00, 0x20, 0x00, 0x00, 0x00, 
	0x18, 0x00, 0x00, 0x00, 0x04, 0x00, 0x00, 0x00, 0x02, 0x00, 0x00, 0x00, 
	0xff, 0xff, 0xff, 0xff, 0x64, 0x00, 0x00, 0x00, 0x04, 0x00, 0x04, 0x00, 
	0x04, 0x00, 0x00, 0x00, 0x0b, 0x00, 0x00, 0x00, 0x64, 0x65, 0x6e, 0x73, 
	0x65, 0x5f, 0x69, 0x6e, 0x70, 0x75, 0x74, 0x00, 0x02, 0x00, 0x00, 0x00, 
	0x01, 0x00, 0x00, 0x00, 0x64, 0x00, 0x00, 0x00, 0x02, 0x00, 0x00, 0x00, 
	0x2c, 0x00, 0x00, 0x00, 0x10, 0x00, 0x00, 0x00, 0x0c, 0x00, 0x0c, 0x00, 
	0x07, 0x00, 0x00, 0x00, 0x00, 0x00, 0x08, 0x00, 0x0c, 0x00, 0x00, 0x00, 
	0x00, 0x00, 0x00, 0x0e, 0x0e, 0x00, 0x00, 0x00, 0x0c, 0x00, 0x10, 0x00, 
	0x07, 0x00, 0x00, 0x00, 0x08, 0x00, 0x0c, 0x00, 0x0c, 0x00, 0x00, 0x00, 
	0x00, 0x00, 0x00, 0x09, 0x09, 0x00, 0x00, 0x00, 0x09, 0x00, 0x00, 0x00
};
const int model_data_len = 4320;